0010011011000110
0000011111001001
0010000010110001
0001110011110001
0001101011111001
0001111101110000
0001000011111001
0001011100110011
0010011111010010
0000111010011101
0010000001111000
0010000110111111
0001011100101000
0010000011100011
1111110101110001
0001010011001111
0010111101001001
0001011001110000
0010110101000010
0001010000110111
0001110110011011
0010100110001100
0001000100000000
0010010111111111
0001111100111001
0001100111000011
0010001100101101
0001110001000111
0011000100110011
0001011101100111
0001111100000000
0001001110100101
0001100010001101
0001111111011110
0010110010010000
0001100101011101
0010011010000001
0010001011010101
0001100011011110
0001110111000111
0010100001101101
0001111000100011
0001100000111000
0001100110100100
0010110000010000
0001101110001111
0010000100011110
0001001101110001
0010001001110100
0001101100110010
0001010000110011
0001000010110100
0001110100101011
0001010111000011
0001100110011101
0001000100111100
0001110111111111
0000111000111000
0010001111011001
0000110001010001
0000101011001111
0001001110110011
0001001110100000
0000101001001110
0000000010011101
1111111110010101
0000000110101001
1111111011010001
1111111011001111
1111111011001111
0000000111001101
0000000010101011
0000000111101101
1111111001011001
1111111000000100
1111111001101111
1111111010101000
0000000011001111
0000000010110111
0000000110101001
1111111011111000
1111111010100011
0000000100010000
1111111100110001
0000000100110111
1111111110000111
0000000100100101
1111111001110010
1111111011111110
0000000010011100
0000000001101100
1111111101111101
0000000100110001
0000000101011100
1111111010001101
1111111011101111
0000000111010101
1111111101010011
1111111101001010
1111111000010001
1111111011011011
0000000010000000
1111111110111100
1111111010001100
0000000000001100
1111111010100010
1111111001001110
1111111011100110
1111111001000000
1111111010111010
0000001000000000
0000000001100001
0000000010011110
1111111000100010
1111111010110000
1111111101010110
0000000001010000
1111111000111101
1111111100100011
1111111011001101
0000000000000001
1111111101000001
1111111111011101
1111111010100101
1111111010100001
1111111011010101
1111111101010001
1111111001101100
0001101111110100
0000111111100001
0010011100111101
0001011111111110
0001100110000010
0001101101101001
0001010101010100
0001000011010001
0001000010011100
0001010101111011
0001100110110100
0001100101000010
0010000110100111
0001011110010011
0001110110101011
0001011100100001
0001011100111111
0001111000000110
0010001100101110
0010100101001010
0001111010000000
0001100001100011
0001111101111001
0001101010001111
0010010101101011
0010000101011111
0010110001110010
0001100110101011
0010010010010110
0010011111100111
0010001111000001
0001111000010101
0010011011101100
0010010010101010
0010001100011110
0001110010101111
0010011011010111
0010000011111000
0001101000100100
0001110111110100
0010010011100000
0001110010011001
0010000110011111
0001001110100001
0001111011101100
0001101100010010
0001001110000001
0001110011001011
0001000111000011
0010000100010111
0010101100110101
0001010100111101
0010000010110010
0001010110110110
0001111101010000
0001101000110011
0001100000110010
0001110011111011
0001010110010010
0000111001100010
0001100000000100
0001100101010111
0001001000100111
0001001010001110
1111111101101100
1111111111100111
1111110111110110
1111110111010011
1111111001011101
1111111000111010
1111111010000001
1111111010100100
1111110010010001
1111110110010010
1111111110101111
1111111011100011
1111110111111101
1111110011101001
1111110100000011
1111110001111000
1111110101110010
1111111011100011
1111111101101010
1111111011111111
1111110001100010
1111110100011011
1111110111100101
1111111111111101
1111111000001110
1111110110110101
1111111100000001
1111110101110010
1111110010101100
1111111101001111
1111110100100110
1111110111011011
1111110001010011
1111111101101011
1111111101100111
1111111011011010
1111110010110000
1111110001000110
1111110001011011
1111111101010011
1111111011111001
1111111110111001
1111111100000001
1111111001001111
1111110111001011
1111110010011110
1111110000111100
1111110001001111
1111111011010000
1111110101000011
1111110110101111
1111110011011001
1111110110011110
1111110010101100
1111110010001110
1111111010011100
1111110101010001
1111111100111001
1111110101100101
1111110010101111
1111110110110110
1111110011100011
1111110101000100
1111110001000000
