00000000000000000010011011000110
00000000000000000000011111001001
00000000000000000010000010110001
00000000000000000001110011110001
00000000000000000001101011111001
00000000000000000001111101110000
00000000000000000001000011111001
00000000000000000001011100110011
00000000000000000010011111010010
00000000000000000000111010011101
00000000000000000010000001111000
00000000000000000010000110111111
00000000000000000001011100101000
00000000000000000010000011100011
00000000000000001000001010001111
00000000000000000001010011001111
00000000000000000010111101001001
00000000000000000001011001110000
00000000000000000010110101000010
00000000000000000001010000110111
00000000000000000001110110011011
00000000000000000010100110001100
00000000000000000001000100000000
00000000000000000010010111111111
00000000000000000001111100111001
00000000000000000001100111000011
00000000000000000010001100101101
00000000000000000001110001000111
00000000000000000011000100110011
00000000000000000001011101100111
00000000000000000001111100000000
00000000000000000001001110100101
00000000000000000001100010001101
00000000000000000001111111011110
00000000000000000010110010010000
00000000000000000001100101011101
00000000000000000010011010000001
00000000000000000010001011010101
00000000000000000001100011011110
00000000000000000001110111000111
00000000000000000010100001101101
00000000000000000001111000100011
00000000000000000001100000111000
00000000000000000001100110100100
00000000000000000010110000010000
00000000000000000001101110001111
00000000000000000010000100011110
00000000000000000001001101110001
00000000000000000010001001110100
00000000000000000001101100110010
00000000000000000001010000110011
00000000000000000001000010110100
00000000000000000001110100101011
00000000000000000001010111000011
00000000000000000001100110011101
00000000000000000001000100111100
00000000000000000001110111111111
00000000000000000000111000111000
00000000000000000010001111011001
00000000000000000000110001010001
00000000000000000000101011001111
00000000000000000001001110110011
00000000000000000001001110100000
00000000000000000000101001001110
00000000000000000000000010011101
00000000000000001000000001101011
00000000000000000000000110101001
00000000000000001000000100101111
00000000000000001000000100110001
00000000000000001000000100110001
00000000000000000000000111001101
00000000000000000000000010101011
00000000000000000000000111101101
00000000000000001000000110100111
00000000000000001000000111111100
00000000000000001000000110010001
00000000000000001000000101011000
00000000000000000000000011001111
00000000000000000000000010110111
00000000000000000000000110101001
00000000000000001000000100001000
00000000000000001000000101011101
00000000000000000000000100010000
00000000000000001000000011001111
00000000000000000000000100110111
00000000000000001000000001111001
00000000000000000000000100100101
00000000000000001000000110001110
00000000000000001000000100000010
00000000000000000000000010011100
00000000000000000000000001101100
00000000000000001000000010000011
00000000000000000000000100110001
00000000000000000000000101011100
00000000000000001000000101110011
00000000000000001000000100010001
00000000000000000000000111010101
00000000000000001000000010101101
00000000000000001000000010110110
00000000000000001000000111101111
00000000000000001000000100100101
00000000000000000000000010000000
00000000000000001000000001000100
00000000000000001000000101110100
00000000000000000000000000001100
00000000000000001000000101011110
00000000000000001000000110110010
00000000000000001000000100011010
00000000000000001000000111000000
00000000000000001000000101000110
00000000000000000000001000000000
00000000000000000000000001100001
00000000000000000000000010011110
00000000000000001000000111011110
00000000000000001000000101010000
00000000000000001000000010101010
00000000000000000000000001010000
00000000000000001000000111000011
00000000000000001000000011011101
00000000000000001000000100110011
00000000000000000000000000000001
00000000000000001000000010111111
00000000000000001000000000100011
00000000000000001000000101011011
00000000000000001000000101011111
00000000000000001000000100101011
00000000000000001000000010101111
00000000000000001000000110010100
00000000000000000001101111110100
00000000000000000000111111100001
00000000000000000010011100111101
00000000000000000001011111111110
00000000000000000001100110000010
00000000000000000001101101101001
00000000000000000001010101010100
00000000000000000001000011010001
00000000000000000001000010011100
00000000000000000001010101111011
00000000000000000001100110110100
00000000000000000001100101000010
00000000000000000010000110100111
00000000000000000001011110010011
00000000000000000001110110101011
00000000000000000001011100100001
00000000000000000001011100111111
00000000000000000001111000000110
00000000000000000010001100101110
00000000000000000010100101001010
00000000000000000001111010000000
00000000000000000001100001100011
00000000000000000001111101111001
00000000000000000001101010001111
00000000000000000010010101101011
00000000000000000010000101011111
00000000000000000010110001110010
00000000000000000001100110101011
00000000000000000010010010010110
00000000000000000010011111100111
00000000000000000010001111000001
00000000000000000001111000010101
00000000000000000010011011101100
00000000000000000010010010101010
00000000000000000010001100011110
00000000000000000001110010101111
00000000000000000010011011010111
00000000000000000010000011111000
00000000000000000001101000100100
00000000000000000001110111110100
00000000000000000010010011100000
00000000000000000001110010011001
00000000000000000010000110011111
00000000000000000001001110100001
00000000000000000001111011101100
00000000000000000001101100010010
00000000000000000001001110000001
00000000000000000001110011001011
00000000000000000001000111000011
00000000000000000010000100010111
00000000000000000010101100110101
00000000000000000001010100111101
00000000000000000010000010110010
00000000000000000001010110110110
00000000000000000001111101010000
00000000000000000001101000110011
00000000000000000001100000110010
00000000000000000001110011111011
00000000000000000001010110010010
00000000000000000000111001100010
00000000000000000001100000000100
00000000000000000001100101010111
00000000000000000001001000100111
00000000000000000001001010001110
00000000000000001000000010010100
00000000000000001000000000011001
00000000000000001000001000001010
00000000000000001000001000101101
00000000000000001000000110100011
00000000000000001000000111000110
00000000000000001000000101111111
00000000000000001000000101011100
00000000000000001000001101101111
00000000000000001000001001101110
00000000000000001000000001010001
00000000000000001000000100011101
00000000000000001000001000000011
00000000000000001000001100010111
00000000000000001000001011111101
00000000000000001000001110001000
00000000000000001000001010001110
00000000000000001000000100011101
00000000000000001000000010010110
00000000000000001000000100000001
00000000000000001000001110011110
00000000000000001000001011100101
00000000000000001000001000011011
00000000000000001000000000000011
00000000000000001000000111110010
00000000000000001000001001001011
00000000000000001000000011111111
00000000000000001000001010001110
00000000000000001000001101010100
00000000000000001000000010110001
00000000000000001000001011011010
00000000000000001000001000100101
00000000000000001000001110101101
00000000000000001000000010010101
00000000000000001000000010011001
00000000000000001000000100100110
00000000000000001000001101010000
00000000000000001000001110111010
00000000000000001000001110100101
00000000000000001000000010101101
00000000000000001000000100000111
00000000000000001000000001000111
00000000000000001000000011111111
00000000000000001000000110110001
00000000000000001000001000110101
00000000000000001000001101100010
00000000000000001000001111000100
00000000000000001000001110110001
00000000000000001000000100110000
00000000000000001000001010111101
00000000000000001000001001010001
00000000000000001000001100100111
00000000000000001000001001100010
00000000000000001000001101010100
00000000000000001000001101110010
00000000000000001000000101100100
00000000000000001000001010101111
00000000000000001000000011000111
00000000000000001000001010011011
00000000000000001000001101010001
00000000000000001000001001001010
00000000000000001000001100011101
00000000000000001000001010111100
00000000000000001000001111000000
