memory_initialization_radix=2;
memory_initialization_vector=
0010011011000110,
0000011111001001,
0010000010110001,
0001110011110001,
0001101011111001,
0001111101110000,
0001000011111001,
0001011100110011,
0010011111010010,
0000111010011101,
0010000001111000,
0010000110111111,
0001011100101000,
0010000011100011,
1000001010001111,
0001010011001111,
0010111101001001,
0001011001110000,
0010110101000010,
0001010000110111,
0001110110011011,
0010100110001100,
0001000100000000,
0010010111111111,
0001111100111001,
0001100111000011,
0010001100101101,
0001110001000111,
0011000100110011,
0001011101100111,
0001111100000000,
0001001110100101,
0001100010001101,
0001111111011110,
0010110010010000,
0001100101011101,
0010011010000001,
0010001011010101,
0001100011011110,
0001110111000111,
0010100001101101,
0001111000100011,
0001100000111000,
0001100110100100,
0010110000010000,
0001101110001111,
0010000100011110,
0001001101110001,
0010001001110100,
0001101100110010,
0001010000110011,
0001000010110100,
0001110100101011,
0001010111000011,
0001100110011101,
0001000100111100,
0001110111111111,
0000111000111000,
0010001111011001,
0000110001010001,
0000101011001111,
0001001110110011,
0001001110100000,
0000101001001110,
0000000010011101,
1000000001101011,
0000000110101001,
1000000100101111,
1000000100110001,
1000000100110001,
0000000111001101,
0000000010101011,
0000000111101101,
1000000110100111,
1000000111111100,
1000000110010001,
1000000101011000,
0000000011001111,
0000000010110111,
0000000110101001,
1000000100001000,
1000000101011101,
0000000100010000,
1000000011001111,
0000000100110111,
1000000001111001,
0000000100100101,
1000000110001110,
1000000100000010,
0000000010011100,
0000000001101100,
1000000010000011,
0000000100110001,
0000000101011100,
1000000101110011,
1000000100010001,
0000000111010101,
1000000010101101,
1000000010110110,
1000000111101111,
1000000100100101,
0000000010000000,
1000000001000100,
1000000101110100,
0000000000001100,
1000000101011110,
1000000110110010,
1000000100011010,
1000000111000000,
1000000101000110,
0000001000000000,
0000000001100001,
0000000010011110,
1000000111011110,
1000000101010000,
1000000010101010,
0000000001010000,
1000000111000011,
1000000011011101,
1000000100110011,
0000000000000001,
1000000010111111,
1000000000100011,
1000000101011011,
1000000101011111,
1000000100101011,
1000000010101111,
1000000110010100,
0001101111110100,
0000111111100001,
0010011100111101,
0001011111111110,
0001100110000010,
0001101101101001,
0001010101010100,
0001000011010001,
0001000010011100,
0001010101111011,
0001100110110100,
0001100101000010,
0010000110100111,
0001011110010011,
0001110110101011,
0001011100100001,
0001011100111111,
0001111000000110,
0010001100101110,
0010100101001010,
0001111010000000,
0001100001100011,
0001111101111001,
0001101010001111,
0010010101101011,
0010000101011111,
0010110001110010,
0001100110101011,
0010010010010110,
0010011111100111,
0010001111000001,
0001111000010101,
0010011011101100,
0010010010101010,
0010001100011110,
0001110010101111,
0010011011010111,
0010000011111000,
0001101000100100,
0001110111110100,
0010010011100000,
0001110010011001,
0010000110011111,
0001001110100001,
0001111011101100,
0001101100010010,
0001001110000001,
0001110011001011,
0001000111000011,
0010000100010111,
0010101100110101,
0001010100111101,
0010000010110010,
0001010110110110,
0001111101010000,
0001101000110011,
0001100000110010,
0001110011111011,
0001010110010010,
0000111001100010,
0001100000000100,
0001100101010111,
0001001000100111,
0001001010001110,
1000000010010100,
1000000000011001,
1000001000001010,
1000001000101101,
1000000110100011,
1000000111000110,
1000000101111111,
1000000101011100,
1000001101101111,
1000001001101110,
1000000001010001,
1000000100011101,
1000001000000011,
1000001100010111,
1000001011111101,
1000001110001000,
1000001010001110,
1000000100011101,
1000000010010110,
1000000100000001,
1000001110011110,
1000001011100101,
1000001000011011,
1000000000000011,
1000000111110010,
1000001001001011,
1000000011111111,
1000001010001110,
1000001101010100,
1000000010110001,
1000001011011010,
1000001000100101,
1000001110101101,
1000000010010101,
1000000010011001,
1000000100100110,
1000001101010000,
1000001110111010,
1000001110100101,
1000000010101101,
1000000100000111,
1000000001000111,
1000000011111111,
1000000110110001,
1000001000110101,
1000001101100010,
1000001111000100,
1000001110110001,
1000000100110000,
1000001010111101,
1000001001010001,
1000001100100111,
1000001001100010,
1000001101010100,
1000001101110010,
1000000101100100,
1000001010101111,
1000000011000111,
1000001010011011,
1000001101010001,
1000001001001010,
1000001100011101,
1000001010111100,
1000001111000000;
